0000111111010100 1000111111010101 0000111111100111 1000111111000001 0000111111100110 0000111111110110 1000111111101101 1000111111010000 0000111111111010 0000111111010101 0000111111110001 1000111110100101 0000111111000100 0000111111011110 0000111111111110 1000111111110110 1000111111100011 0000111111100001 1000111111101010 1000111110010101 0000111111011110 1000111111001000 1000111111010111 1000111111101000 1000111111111001 0000111111101001 0000111110101111 0000111111101110 0000111110000010 1000111111110000 1000111111100111 0000111110101010 1000111111101001 0000111111010001 0000111111100110 1000111111011111 1000111111000000 1000111111100000 1000111111001001 1000111111001100 0000111111110010 1000111111101001 1000111111011010 0000111111011000 0000111111100100 0000111111001000 1000111111101100 0000111111010010 0000111111101000 1000111110101110 1000111111011010 0000111111011101 0000111110111111 1000111111010111 1000111111110111 0000111111100100 0000111111110110 0000111111111011 1000111111011001 1000111111100101 0000111110110110 0000111111100110 1000111111110101 0000111110111010 1000111111000101 0000111111101010 0000111111110010 1000111111100110 1000111111011011 1000111111111101 1000111111011011 0000111111100011 0000111111010111 1000111111010000 0000111111001101 0000111111111001 0000111111110110 1000111111000101 0000111110101001 0000111111001001 0000111111101111 0000111110111110 1000111111100110 1000111111110000 0000111111110101 0000111111010100 1000111111010001 0000111110101100 0000111111000010 0000111110110001 1000111110101000 1000111111110010 0000111111110100 1000111111101111 0000111111101000 0000111111001111 0000111111100001 0000111110100101 0000111111100111 1000111110110110 1000111111100011 1000111111111100 1000111111110111 0000111110100111 1000111111101111 1000111111110100 1000111110111001 0000111110110001 1000111111101101 1000111111101010 0000111111011000 0000111111110110 1000111111110100 1000111111111111 0000111111111100 1000111111010011 1000111111110111 1000111110111010 1000111111101101 0000111111101001 