1000111111011010 1000111111101110 1000111110111101 0000111111101010 0000111110111110 1000111111011010 1000111111111111 0000111110101001 0000111111001111 1000111110011100 0000111110110001 1000111111010010 0000111111001001 0000111110110011 1000111110110111 1000111111011100 0000111111101011 1000111111000010 1000111110100100 1000111111111101 1000111111000011 0000111111111000 1000111101010001 0000111111010010 1000111101100111 0000111111101000 0000111111110010 1000111111111111 1000111111111000 1000111111111000 0000111111010010 1000111111100011 1000111111001110 1000111101111001 0000111111100110 0000111111101011 0000111111000011 1000111110001000 1000111111111001 1000111101110111 0000111111101011 1000111111110111 1000111111110000 1000111111000000 1000111111111000 0000111111100100 0000111111100100 1000111110110110 1000111111000110 1000111111101101 1000111110110100 1000111111111110 0000111111111001 0000111111010100 1000111111000111 0000111111100001 1000111111111110 1000111111111011 1000111111010011 0000111111011000 0000111111111100 1000111111011110 0000111111000001 1000111110000011 0000111110110111 0000111111110001 0000111111000110 0000111101110100 1000111111100110 0000111110111100 1000111110011111 0000111110110000 1000111111101001 1000111111111011 1000111110111111 0000111111101100 0000111110011010 1000111111100110 0000111111000011 0000111111001011 0000111111101010 1000111110101010 0000111111000100 1000111111101010 