0000110111000001 1000111100000000 0000111011100001 0000111011000110 0000111010001010 1000111001111010 0000110110001110 0000111111010000 1000111111111110 1000110110000110 1000111110011100 0000110111010000 0000111110011101 1000111010011001 0000110101101110 1000111010000100 1000110101100001 0000111000111111 1000110110100011 0000111101110100 0000111000100001 1000111011001110 1000110110001100 0000110111100100 0000110101000001 1000111100001110 0000111011111001 0000111011111001 1000111101101101 0000111001101111 1000110111001001 1000111110001110 1000111010110111 0000111000001111 1000111010100001 1000111010000010 0000111110010110 1000111101001010 1000110101001110 0000111011110110 1000111000011001 0000110101011011 0000111011011110 0000111110111110 0000111011101101 0000111100011000 1000111101110000 0000111011000101 0000111110001001 1000111110111000 0000111110001000 1000110111101101 0000110101110000 0000110101001011 1000111101001010 1000111001001100 1000110110100011 1000110101100101 1000111100010100 1000111101100010 1000111111010001 0000111011100001 1000110101110010 1000111101011101 0000111010100111 0000111101111001 0000111101101111 0000110110010001 1000110100110111 0000111001100000 1000111101011110 1000111010100101 0000111010100110 1000111000010001 1000111001101010 0000111011010000 1000111110110001 1000111000000101 1000110110010111 1000111111111010 1000111001100110 1000111100101110 0000111100011000 0000110100010101 1000110111001010 0000110110000101 0000111100000011 0000111001111011 0000111110100011 1000111001101000 1000111101101110 1000111101101111 1000110100101000 1000111110110110 1000111011000101 1000111001111111 0000110110100001 1000111111101010 0000110101101011 0000111000011100 1000110110010011 0000111111000011 0000111011100001 0000111011100001 0000111000101001 0000111001010001 0000111100000001 1000111000011100 1000111110101001 1000111111111010 0000111100000110 1000111100011001 0000111101110110 0000111101100001 0000111000000011 0000111101111011 0000111100000000 1000110011000100 1000111001010111 0000111010100101 0000110101100000 1000111011110010 1000111110100101 0000111010000111 1000111010001110 0000110110000100 1000111101011100 0000110110111100 0000111111010101 1000111001111111 1000110111000011 0000111101011010 0000111111001001 1000110100001100 1000111111100101 0000111000001110 1000111101011000 0000110101011011 1000111110101100 0000111111110001 1000111011101101 0000111010111111 1000110110111100 1000110110101110 1000111101111110 0000111101010101 0000110101001101 1000111001101101 0000111011100101 1000111010110111 1000111111111000 1000110111100111 1000111111000110 0000111100010010 1000111100100000 1000111101000010 0000110110110010 1000111000000100 1000111100100010 1000111110100010 0000110111110100 1000111000010111 0000111011110011 1000111101101101 1000110110110100 1000111111110010 0000111001101110 1000111010010100 0000110111111000 1000111001100110 0000110011010001 1000111101010111 0000111001100111 1000110101100011 0000111100001011 1000111111101011 1000111000101010 1000110111100001 0000111111001110 1000111001001101 1000111111001110 1000111100010100 0000111110101000 1000110101000001 1000110111100111 1000111100001100 0000110100110000 1000110111100100 0000110100001000 0000111100011110 0000111010001000 1000110111001100 1000111000110110 1000110110011010 0000111101010110 0000110101011001 0000111000101110 1000111101101011 1000111101011100 0000110110111100 1000111010111011 1000111001000100 0000111010110010 0000111110010010 0000110110001111 1000110011111010 1000111110000100 1000111000111000 0000111010000011 0000111101100010 0000111100001000 0000111100001000 0000110101110001 1000111111101100 1000111010000101 1000110101111100 1000110111101001 1000111101001001 1000111000011100 0000111001111100 0000111000101111 1000111101111111 1000110110001111 1000110110010010 0000111001000000 1000110100101010 0000111001110010 0000111000110011 0000110101010001 0000111111011011 1000111000111000 1000111101011001 1000110101011111 0000111000100011 0000111111110110 0000111110111101 1000111001101101 0000111101010111 0000111110100000 1000111010011101 0000111101100101 1000110101110001 0000111110100011 1000111100111000 0000110100101010 1000110111100111 1000111001110100 0000111101010000 1000110101111111 0000110101110100 1000111000100000 1000111000101010 1000111100101111 0000111111010001 1000111100001100 0000111100110110 0000110100101110 1000111000111101 1000111100000010 0000111111001111 1000111100101110 0000111001011000 1000111010111110 1000111110010001 0000111101111010 0000111011010011 0000111101101010 0000111010111100 0000111111001111 0000111010011100 0000111100110100 1000110111011011 0000111010101001 1000111001101011 0000111011000010 1000111110111010 0000111111101001 1000111011001110 0000110110110110 0000111111100100 1000110100101111 0000111000000100 0000111111101111 0000111011110101 1000111000010101 1000110111001111 0000111000000011 1000111100101010 0000111100101001 1000111000101100 0000111101110001 1000111001101110 1000111010001110 1000111111100110 1000110110110001 0000111111001010 0000111000110010 0000110110010010 1000111111110001 0000111000000101 1000110111101011 0000111011110010 0000111010000100 1000111001110111 0000111110000001 0000111100010011 0000111011011100 0000111011100110 0000111110001011 1000111010010110 1000111001000010 0000111000000110 1000111110110110 1000110110101000 0000111000110000 1000110111100100 0000111001000101 1000110111101111 1000111111001100 0000111010001111 1000111001101101 0000111111111010 1000110110000001 0000111111100110 0000111111100010 1000110111010100 1000111001010000 0000111101101110 1000111011100000 0000111000110011 0000110111101101 1000111000011110 0000111111110111 1000111010101001 0000110111010110 1000111001010100 0000110110110010 0000111111110110 1000111010010101 0000111100001000 1000110111111010 1000110111110100 1000110110100110 0000111101001001 0000110101100001 0000111000001010 0000111000110011 0000111000001011 1000111111000110 1000111010000010 0000110111000010 0000111110101010 0000111010111111 1000110011100000 0000111111111101 0000110110100011 0000111011110100 0000110110011100 1000111100110011 1000111101010011 1000111011011101 1000111001001001 0000110110010000 0000110110110001 1000111011001111 1000110101000111 0000111100011001 0000111110100011 1000110111010000 1000110110101011 1000111111101011 0000111100111000 1000111010100001 1000111011010010 1000111110101101 1000110101111101 1000111110110100 1000110111111100 0000111001000001 1000110101000111 0000111000110010 1000111001101000 0000111111001100 0000111011001001 1000111000011100 0000111110011010 1000111011110000 0000111111111001 0000111101110011 0000111110110100 1000111111000111 1000110111011100 0000110101001100 0000111101110100 0000111000110000 1000111001011010 0000110100100011 1000111011010110 1000111111110101 1000111101010000 1000111010001110 0000110110010101 0000111101101011 0000111000101111 0000111011110000 1000110110100010 0000111011111010 1000111011111100 0000111011001011 0000111101101010 0000111100100011 1000111011111111 0000111000110101 0000110011101111 0000111000011101 0000110100001100 1000111101011000 1000111000100100 1000111001010101 0000111010000110 0000111110101111 0000110101011001 1000110100100011 1000111111001010 0000111111110001 0000110111100110 0000111101111111 1000110111101100 0000111000101101 0000111100110010 0000111001000111 0000111011110001 1000111011101001 1000111010010010 1000111101011111 0000111111011000 0000110100111110 0000111101101101 1000111101111101 0000111101110110 0000111101110011 0000110110100111 1000111001101111 1000111001110110 1000111110011000 0000110110110110 0000110111000010 1000111100011011 1000111111000111 1000110111110110 0000111000010101 0000111010010010 0000110111110011 1000111100110000 0000111111110111 0000111011110111 1000111111100001 0000111111100001 1000111001011010 1000110110110101 0000111010110110 1000110110000100 1000110101000001 0000111000010101 0000111001001110 0000110100111000 1000111101000010 1000110110001000 0000110110000011 0000111100010101 0000110101110001 1000111000000000 0000111011111110 1000111011011100 0000111101001010 1000111100001111 0000111000011010 1000111011100110 1000111011100100 1000110011111000 0000111111011111 1000111001111101 0000111100101110 1000111001001010 1000111100010000 1000110110111100 1000111100011111 0000111000110110 0000111000000111 0000110010001110 0000111111111101 1000111111101000 1000111100100010 0000111101011101 0000111001011001 0000111110111111 0000111000010101 0000110111001010 1000110110111001 1000111110010101 1000110111111110 1000111101101101 1000110110010010 1000111000011001 0000110010110011 0000111100010100 1000110111110011 0000111100001101 0000111010010111 0000111101010011 0000111110000110 0000111000001011 0000110111001110 1000111111101111 1000111000110110 1000111101100000 0000110110100110 1000111010010011 1000110111000000 1000110110101111 0000111110010101 1000111010001101 1000110111111101 1000111110010111 0000110110000110 0000110110011110 0000111010011001 0000111010000110 1000111101010100 0000111001101100 0000111101111000 1000111110000110 0000111000100000 1000111111010011 0000111101000100 0000111011100011 0000111111010011 1000110111100100 1000111111010101 0000111111111010 0000111100011010 1000111101010101 1000111111100001 0000110110001001 0000111111100100 1000110110011100 0000111011010010 0000111101011001 0000111110000111 0000111001111110 1000110111010110 0000111000101001 1000111000110010 1000111000001100 0000111111111110 0000110101111110 0000110111100010 1000110101101111 1000111001101010 0000111001001100 0000111000010010 1000110110000010 0000111110011110 0000111001110011 0000111000011001 1000111011110110 1000111111011010 0000110110010011 1000111100101001 0000111110110000 1000111000100011 1000111010111111 1000111110001001 0000111101000011 1000111000011101 1000111001011101 1000111111000100 0000111110011101 0000111010000011 0000111011111001 1000110011111001 0000111001011001 1000111010001111 1000111101110010 0000110101010001 1000111011011010 0000111101011100 1000110101111001 0000110010011011 1000110111011100 0000110111010011 0000111100000010 0000110111110011 0000110111100110 1000111011001110 0000111001100101 0000110110111001 1000110110100111 1000111010111111 1000111110100010 0000111100010001 1000111100010011 0000111110101101 0000111100101111 0000111011000001 1000110101101100 1000111100110110 0000110010010101 1000111000010001 1000111010010010 0000111010000001 0000111011111111 0000110101000100 1000111110011010 0000111111100110 1000110101110010 1000110110101001 1000111000110000 1000111100011000 0000111001100001 0000110111010000 0000111010100111 1000111110110101 0000111101000100 1000111101100000 0000110100010000 1000111001100001 0000110111010000 1000111111000101 1000111110010100 0000111111010011 0000111010111011 1000111100000100 1000111100100010 0000111001100001 1000110111000111 1000111010101000 1000111101000110 0000111111000111 0000110101000000 0000111110010100 1000110100010000 1000111001110100 0000111110010100 1000110111110111 0000110011111111 1000111010101101 1000111101100111 0000111100001100 1000111011011110 1000111001011101 0000111100111111 1000111011111000 1000111110010001 0000111100101010 1000111011110001 1000111111010101 1000110111000101 1000111011110000 1000111000000111 0000110111111101 1000111010001111 1000110100100100 0000110111001011 0000111001111111 0000111001101101 1000111101000011 0000111010011100 0000111101111111 0000111001001000 1000110111111011 1000111101010000 0000110110111110 0000111110101100 0000111001010110 0000111001000100 1000111001100111 0000111101100111 1000111000110111 1000111001010010 0000111111110010 1000111110110000 1000111011111111 0000111011010001 1000111101111100 1000111100111010 1000111100011110 0000111111101001 0000111110001000 0000111000101001 0000111000101001 1000111000100100 1000111010110110 0000110111001010 1000111011000110 0000110010101101 0000110110011000 1000111111000010 1000111001110111 1000111101000101 1000111010110110 0000111000110010 0000111010011111 1000110101000011 0000111101001010 1000111010111111 0000111001100100 0000111011101010 0000111100001111 1000111101100101 0000111000000101 0000111111100000 0000110111010010 0000111110101011 1000111000000011 0000111000111000 0000110101011101 0000111110101000 1000111000010011 0000111100010010 0000111110001101 1000110110100001 1000111001111100 1000110100001100 0000110100110111 0000111000000001 0000111110000101 1000111000111110 0000111100101000 1000110100101110 1000111010111111 0000111011011110 1000111001010111 0000110110110111 0000111011011111 1000111111011001 1000111101110010 0000111011001011 1000111000001111 1000111010111001 0000111101100010 0000110111101010 0000111010110110 1000111011011001 0000110111000010 0000111011100111 0000111011010111 1000111001010000 1000111000110000 0000110110000000 0000110100110010 1000111000110111 0000111000001000 0000111000111101 1000110110111100 0000111101010111 1000111010010001 1000111000111000 0000111001101111 1000110110001110 0000111010101101 0000110110100110 1000111000110101 1000111111100111 1000110110000000 0000111001000101 1000110111011000 1000111110111010 0000110101100010 1000111000001111 1000111001111100 1000111111000111 0000110100010110 1000110111001001 0000111011110100 0000111111111000 0000111101011001 0000111011001010 0000111010101100 1000110101001111 0000110111001011 0000111110111100 1000111111110100 0000111101000000 1000111001001100 0000111101010100 1000110111011001 0000110111000010 1000111010101100 1000110101101001 1000111001001000 1000110110101011 1000110110010011 1000111010000101 1000111001101111 0000111000101100 1000111100011111 0000111110001111 0000111011110101 0000111101101101 1000111011001000 1000111100110111 1000110101001111 0000111111101011 1000111101000101 0000111000011011 1000111000000001 1000111001110000 0000111011100001 1000111111111100 0000111001010110 0000111010100010 0000111001010101 0000111100000010 0000111001011011 1000110110111110 0000111101101000 1000111001001011 1000111111110011 1000111000001101 1000110110010100 1000110111000111 0000111101010011 0000111101001010 0000110110001000 0000111011110011 0000111101101001 0000111000111101 0000111010100010 0000111111011000 1000111000101001 0000111001111010 1000111001110011 0000110110111000 0000111101000111 1000111010001111 1000110101000011 0000111111010001 1000111011010100 0000111011011111 